fc
fd
fe
01
fb
fe
04
00
04
09
02
00
fe
fc
01
ff
07
0b
0f
03
09
02
fc
f7
00
f9
05
0a
0a
19
12
0e
0d
00
ff
f9
01
00
ff
08
0e
12
0a
0c
00
03
01
ff
0a
fa
f6
00
fd
09
0d
ff
09
0a
0f
04
f5
d5
f6
fa
fc
12
00
12
0c
09
0e
f1
da
f2
ff
00
10
04
13
05
0d
08
eb
f3
fd
fa
fa
04
08
11
07
13
16
07
00
f9
fc
00
02
fa
04
06
0d
16
03
fd
f4
f6
fb
00
03
fb
fd
f8
fe
fe
01
fb
f8
f8
00
00
05
fe
f7
f9
f8
f4
f8
fc
fa
ff
02
fe
fe
fd
04
fe
f9
f9
f8
fc
fa
fd
03
fe
06
01
00
ff
fa
fd
00
06
02
02
09
03
06
0b
ff
fe
fa
f6
04
fe
0b
00
05
00
09
f4
00
fd
f7
00
fc
02
0c
00
05
f4
e7
f9
07
01
08
06
08
03
0c
00
d8
f7
fa
05
0a
0f
05
fd
02
fe
f8
f3
04
0e
09
0f
0a
fc
f7
00
fe
f3
fc
04
0f
02
04
00
00
f9
00
0b
06
0a
02
06
00
06
04
01
ff
02
0d
04
03
09
fd
fd
fc
04
ff
00
01
00
01
fb
02
fd
01
fe
ff
02
01
02
02
fe
fc
0a
0b
01
fd
00
fc
fc
fe
ff
01
03
fe
fb
fe
f8
00
fa
04
ff
fc
fa
f7
fc
f9
fe
f6
fe
fe
f7
f9
fb
f1
f1
f7
f5
fb
f2
f7
fb
fb
f4
e8
e9
ee
f6
f8
00
f4
fe
f9
f3
f4
f0
ef
ea
f2
fc
00
00
fc
fb
fb
f2
f8
ef
f5
fe
fb
ff
fa
fd
01
01
fb
fa
f9
ff
04
07
05
fa
fb
fd
fa
05
0a
0c
08
01
04
fc
00
05
00
ff
05
07
07
00
06
fb
03
fd
ff