02
fe
00
02
fa
03
03
f5
ff
04
00
03
04
fb
fe
06
03
fe
f9
fe
01
00
00
fe
00
03
04
fa
04
f6
f7
04
f9
00
fe
fa
f4
ee
ff
16
00
00
00
f8
ff
fc
fa
ee
ee
0a
1c
00
ff
00
fe
fe
00
fd
f2
ed
10
1d
f6
f6
f7
fa
00
fa
f9
f4
e9
1c
1a
fa
f4
ff
00
fe
ff
00
f6
f0
23
13
fc
fc
02
05
06
00
fa
f6
f2
0b
fc
00
0d
0b
02
03
06
00
00
04
03
00
11
0c
03
02
00
08
09
ff
fa
ff
fd
ff
07
07
02
03
ff
fc
02
06
11
0f
0a
fd
fe
00
fd
02
f6
ef
fa
0e
0c
09
07
05
04
fa
fc
f3
e9
f0
f0
f7
07
09
08
fd
fa
04
f9
f2
f9
fd
02
ff
02
fd
f8
04
fc
0c
06
04
1a
10
fa
ff
f7
00
01
ff
07
ff
11
13
0e
fd
f8
fe
fa
fc
ff
f6
f7
05
11
0d
f1
f5
fc
f9
02
fd
f3
fe
fd
0d
e7
e5
f4
01
03
00
fd
fe
05
04
fb
f1
fb
04
02
06
06
0c
0e
11
08
fc
ff
05
0b
03
05
0e
0b
0a
fb
f8
fc
02
ff
fe
05
fc
05
fd
01
f9
f4
f9
f0
ef
00
fc
02
fc
01
f9
fc
f5
f3
fa
f5
f7
f9
f8
04
fd
fd
f9
f1
eb
f5
ef
f5
f7
01
fb
fd
fe
02
f9
ee
e6
ee
f5
f6
00
07
03
02
03
fd
f9
f2
ed
ed
f7
f7
ff
04
f9
00
fe
f1
e7
f4
f3
01
06
fe
00
fa
f3
f5
eb
f6
fd
fc
08
01
01
09
fc
07
00
f1
fd
01
04
04
08
fb
fd
fb
f4
f7
f5
ff
05
05
07
00
f7
f9
fc
f0
fc
fb
03
04
05
06
05
0a
06
02
fe
03
0b
06
0e
0c
08
03