01
05
fd
fe
00
fb
f7
f5
f9
08
0a
00
fd
04
ff
f0
eb
e3
ec
ee
f6
f5
ff
00
01
fc
f4
e9
dd
e1
f4
ef
f1
00
03
01
05
f9
f9
f4
e8
f9
05
05
f9
02
09
01
06
fb
f9
fb
00
02
0a
fe
0e
0a
06
11
03
03
08
02
04
0d
fd
08
08
10
0e
0d
0d
fd
ff
07
0d
f8
04
15
0d
1a
0c
03
04
0f
00
05
fd
01
08
0e
19
0a
0d
08
02
f9
00
fe
f7
fa
fe
fb
00
02
01
fd
02
fc
00
01
fe
f9
f2
ef
f6
f7
fa
fe
00
fd
02
01
0e
15
12
15
08
0d
03
09
05
05
05
10
07
0e
16
13
0e
05
02
00
fc
fe
fd
04
09
02
fc
01
05
f9
fc
02
05
fc
00
08
00
f0
f1
f3
f8
f8
fb
04
00
06
04
fd
fa
f3
e9
01
fa
08
00
0c
0f
09
05
fe
fb
06
08
f9
fb
00
0a
03
08
00
fd
08
0b
0c
00
fb
02
fa
08
fc
02
08
01
02
03
fb
f8
fa
fd
fa
fd
fe
02
fe
ff
04
ff
f6
04
07
0f
07
02
05
00
fd
00
f3
f6
fa
fe
07
03
00
fc
06
f9
fe
fa
02
ff
f5
f1
f6
f4
fa
fa
fc
00
02
00
ff
f7
f4
ea
f3
fd
fc
04
06
00
fa
f4
ec
ea
ef
f2
fc
14
0c
0c
01
00
ef
ec
e8
fb
01
15
18
17
10
f7
f4
e8
e1
eb
f9
04
19
10
07
fd
fe
f4
ef
ea
e9
f6
06
12
12
06
f3
ff
f1
e8
e7
ed
00
04
04
fd
fe
f8
07
f1
f5
f3
f5
00
00
fd
01
f7
01
00
fa
fc
f1
f7
03
09
0a
00
01
f6
fe
fe
0a
05
01
06
05
09
02
f9
01
00
fc
05
05
10
08
0a
08
00
00
fa