fe
04
fd
01
f8
f7
fb
f6
fb
07
05
06
08
04
ff
f8
00
00
fd
f5
00
04
05
08
04
02
ff
fa
f4
f7
f6
fb
06
fd
fe
0f
05
13
ee
f1
05
fe
fe
f7
00
07
17
19
20
01
f4
11
00
ff
f4
01
14
15
14
17
f9
03
14
00
09
03
fb
01
09
04
07
03
17
14
03
07
00
fa
f5
f8
f7
f7
fd
1b
00
fe
fd
f7
fa
fc
fb
f3
f9
01
0c
ff
05
00
fa
f8
fb
f3
f8
f8
01
05
06
00
04
01
03
f7
fb
00
f9
f5
f8
f8
fc
09
05
fb
fc
fa
fc
fd
fa
06
09
ff
02
06
02
02
fb
ff
02
09
10
17
11
08
06
00
02
02
f9
01
fc
08
1f
14
17
0c
ff
f6
f4
f6
f5
e7
f8
12
0f
09
08
f3
fc
fd
fe
f8
e6
ef
fe
00
09
f5
fa
ff
05
09
06
f0
fa
0c
06
01
f8
0f
ff
07
04
f6
03
0e
12
0f
00
00
05
09
0f
02
0a
11
0d
08
0e
fe
fa
00
09
04
05
04
05
fc
f9
fd
f7
ff
fc
f7
fa
fd
f7
f6
ef
f0
f9
02
00
fe
f9
fb
fb
f7
f8
ff
f9
00
00
fe
00
00
fe
08
04
fa
f9
ef
f3
fe
04
ff
fa
f8
f5
ee
e9
dc
ec
f2
f9
00
fc
00
fa
f3
ed
df
db
e0
eb
ec
fc
00
03
f2
ed
dc
dc
da
d0
e7
f5
00
fc
f8
eb
f3
f7
fc
f3
e7
ee
f4
01
f8
f2
00
07
0c
09
00
00
01
05
ff
08
f7
03
17
1c
17
14
0f
09
0e
06
07
01
00
0d
0d
16
08
08
05
fb
02
01
04
fa
fb
04
00
fb
04
01
00
ff
03
05
00
f6
f3
f4
f3
fc
07
04
fe
01
fc
fa
f9
f7
f4
03
04
02
06
fe