01
03
fb
fe
fc
01
05
06
0b
04
f6
fd
fb
e5
e2
ef
01
0e
0b
10
0b
00
ff
f4
f7
f3
01
14
18
0e
0c
0d
fa
fe
09
06
14
23
1d
0e
07
0b
0a
04
01
11
1d
20
0a
fb
fc
00
08
06
00
08
12
13
11
fe
f0
08
0d
07
09
fa
02
05
0e
01
f2
ef
fc
04
04
07
fb
fd
ff
00
fb
e6
e2
f5
fa
fa
fa
fe
00
fd
fe
f0
f2
fc
fd
f2
fa
00
fa
04
fa
f4
eb
ed
f5
fa
fd
fc
07
00
ff
03
02
0b
12
0f
0e
0b
13
08
06
00
00
01
00
fa
ef
f3
f5
fd
fb
fb
04
fb
00
08
0c
f0
e8
e4
ed
f4
fa
f8
00
16
16
fe
fc
f9
eb
f1
f7
fa
f8
0d
13
0b
0f
11
0b
f4
eb
ef
f3
00
03
fd
02
03
fd
0f
fd
f9
fe
f8
00
f6
f0
f0
ef
07
17
10
09
08
fc
f4
f4
e0
e5
f7
08
08
0e
07
09
fe
f3
f5
f0
00
f3
f0
01
fa
fd
fa
fb
f6
f8
02
06
02
04
fd
f8
f9
f1
f7
01
01
07
00
0c
f6
fa
f8
f0
fa
fa
fe
f9
ff
03
f9
fd
fa
f7
fb
01
04
fe
02
fc
fe
00
0f
1b
1c
13
0b
04
f9
fb
f8
01
0c
10
16
11
06
00
04
00
f8
fc
fa
01
08
08
0a
02
fe
fc
f3
fb
f5
f6
ff
04
07
0e
13
07
ff
f5
ef
f0
f4
fb
fb
f7
08
00
f4
f8
f5
ef
f8
05
0b
0d
00
ef
ec
eb
f3
fb
f9
ff
13
23
20
f4
e3
e1
ea
fc
fb
04
13
1c
1e
0a
f4
e3
e4
eb
f5
03
01
0c
12
11
05
ff
e7
eb
f2
00
00
05
06
06
03
f1
ed
fc
00
ff
fa
f9
f9
f6
f8
f0
f5
f5
01
fa
ff
fb