01
02
08
07
00
f8
00
f0
f6
f7
fd
0d
14
15
16
0e
00
fd
02
fd
fe
fa
05
0d
0c
0b
06
00
07
0e
ff
05
00
10
0a
fe
f1
f5
fb
14
0e
0c
08
fb
0a
f5
e0
e4
ee
f4
0d
15
07
0f
00
01
f6
ec
01
f3
ee
0c
09
04
0a
01
00
fa
f6
00
ee
f1
06
01
10
07
fd
f7
f0
fa
f7
f8
ff
0b
fc
09
fc
f9
00
f1
ea
ea
ee
03
fa
f7
f9
f5
f0
00
fd
fe
f8
f7
01
f8
fd
f2
ee
f1
02
05
08
0b
07
09
09
08
f6
fa
f4
06
02
02
00
fb
fa
ff
fd
f8
00
fd
00
01
fd
fa
f2
f4
f6
f8
00
fe
fe
00
fb
f0
00
00
f8
01
0c
05
04
ff
05
fe
ff
0f
12
11
0c
10
16
06
fa
10
02
09
17
12
11
08
0b
0c
08
01
05
08
17
15
fc
03
04
f7
03
01
f8
02
0c
15
0b
f2
f3
fd
03
08
00
ff
f7
03
0c
03
01
06
0e
11
14
09
f7
01
00
05
06
0d
09
05
0a
02
fb
fb
fc
01
01
fb
fc
f4
ed
f8
f3
f5
f5
fb
05
ff
f5
f3
eb
f8
f6
f0
f6
f6
fe
04
05
0c
0a
05
02
03
00
fd
00
ff
05
14
0c
08
0c
04
09
08
ff
02
02
0d
15
1c
1d
1a
0d
12
00
fa
00
07
0a
19
19
16
18
12
03
fb
fe
01
0d
10
11
0c
07
ff
04
fe
fe
06
07
07
08
06
ff
f4
f3
fb
00
0b
00
05
00
00
fa
f8
e4
e7
f9
09
0c
04
fe
fc
f9
fd
fb
ec
ea
fd
00
06
02
03
01
ff
f8
fa
f4
ea
fa
f8
fb
ff
f8
fa
f7
f8
ec
ec
ed
f8
f9
01
01
00
fe
f1
e7
e6
f3
f3
f3
fa
f9
02
04