01
00
09
08
12
0b
14
12
0c
02
00
03
09
09
0a
07
0b
08
07
0c
07
fa
03
04
f2
f0
f1
eb
f5
fd
00
04
ff
fa
f0
ee
e1
e4
f7
02
f5
f7
fc
ff
f6
ec
e0
e9
ec
0d
08
00
06
fe
fb
ff
f4
f0
00
00
1c
01
ff
0e
fd
fd
03
ff
fa
fe
fc
0c
f9
fc
01
05
03
07
06
fc
f9
f5
f9
ee
05
06
ff
00
0c
fa
f9
f3
ea
e6
fc
03
04
02
05
09
06
06
fd
f6
fc
fc
04
04
f9
fc
01
03
0c
0d
07
01
f7
fa
00
fa
00
ff
fc
fc
03
00
04
03
fb
02
03
fa
01
08
01
f7
eb
f3
fe
fb
f7
f7
fa
0c
09
05
00
f9
f9
fc
fd
fa
f9
fb
10
0b
10
10
05
0e
01
04
02
00
f5
04
0b
0b
1a
0c
0b
07
0d
0b
06
f4
ff
f2
fc
00
08
14
0a
04
04
f3
f8
f3
ee
e5
f8
03
fd
f7
01
f2
f6
fe
03
f5
e6
e5
f0
f4
fd
fe
f7
06
00
0a
0b
f5
f6
f6
ff
08
0c
02
07
f8
10
0e
04
01
ff
08
08
08
07
06
00
07
0c
0c
10
0b
0f
03
06
0c
00
ff
00
fd
fe
03
0c
01
00
fa
fe
f9
fa
fd
07
0b
0b
0c
0c
08
fd
f1
f2
f3
0a
03
11
19
0e
15
04
fd
f8
f2
f9
03
0f
0c
0e
12
0c
00
fd
ee
f7
fb
05
0b
13
06
04
0b
08
f9
fc
04
03
06
08
07
0a
0b
06
00
03
0b
02
02
fd
05
0e
11
15
0d
17
15
01
fa
fe
03
0e
11
15
14
18
0e
03
fe
f1
f2
01
05
0f
11
18
0e
05
01
f0
ef
fb
0c
10
15
10
08
0d
fb
f5
e9
f2
f7
01
00
04
ff
00
f7
f1
f7
f6
f3
fa