fa
fc
fc
02
06
08
0d
15
10
01
fa
01
f5
f8
fd
07
02
04
06
03
0d
00
05
f7
ec
f2
fd
00
0c
09
0a
02
fb
fe
f3
e6
fa
ef
e5
ef
04
fb
f7
fd
02
f5
f2
ef
ef
f8
ee
f2
f4
fa
f4
fa
ed
e9
e7
f8
fe
f0
e8
f4
ed
fa
ff
f6
f9
fa
09
0b
fd
f5
f1
ee
f9
0a
05
0b
06
12
0b
05
03
00
f9
00
09
09
0b
0e
0c
09
0a
10
0d
04
0a
06
07
07
08
0b
ff
fc
06
03
07
00
08
fd
f2
f5
f5
f7
00
fd
02
fe
07
02
00
07
01
fd
f1
f0
f2
f7
fb
ff
06
0c
0f
0b
04
f7
f9
f0
f4
fd
fd
09
11
03
fb
fd
fd
fb
f3
ef
fb
f5
0b
08
fe
ff
fd
f8
f1
ed
fb
fe
fb
0e
08
09
03
f9
fa
f6
fa
04
03
f5
08
07
12
0a
f8
ff
fc
ff
0f
02
06
fe
12
1b
24
22
0e
01
0b
0a
0d
06
14
14
17
0f
0f
0f
08
0b
08
0b
08
08
08
04
0a
0a
04
05
06
fe
00
0b
06
ff
03
06
07
03
02
04
fd
06
06
02
00
00
fb
03
fc
01
08
09
04
00
fb
03
04
02
03
03
f9
f9
fd
fd
fc
ff
fe
00
09
13
07
06
00
f8
fc
f7
03
0a
09
0b
0a
0c
0a
01
03
f8
f7
03
04
0d
14
0e
0e
00
f9
f3
f4
f7
0e
0f
16
20
18
14
02
f6
f1
f6
fe
06
15
0d
13
06
00
f8
f8
ef
fb
05
00
04
ff
00
fc
f0
f5
ef
f9
0b
15
f3
f0
eb
e5
ee
f7
02
01
14
1e
1c
05
f5
f2
ef
02
00
02
16
26
2a
1c
00
f6
f5
fe
ff
02
0d
21
24
16
14
01
02
fc
09
05
06
13
0f
11
10
02