00
06
07
02
00
f4
f5
f6
f0
e5
f9
f7
f9
0a
06
03
f6
f9
f4
ef
ec
00
fd
fe
0c
13
18
06
ff
fc
f7
f0
0b
fe
01
0c
07
0e
07
fc
fb
fd
ea
fc
fd
fc
04
04
0c
07
fb
ff
09
fa
fe
fb
fe
fb
fd
05
00
f6
fa
03
00
f6
01
ff
00
f9
f9
f1
f2
01
fb
fb
01
ff
02
03
f2
f0
ef
f4
ff
ff
fb
08
00
fa
fa
f5
ff
fb
00
ff
fa
fd
06
06
fb
01
07
08
02
00
04
00
06
0e
00
fc
fd
01
09
08
0a
09
01
09
0a
00
00
f8
ff
fd
03
0b
0e
11
0a
02
f6
f8
00
06
03
05
08
15
0a
05
06
f4
f1
f9
02
02
02
04
0f
0f
07
0f
f0
ef
f4
f8
f8
01
fc
05
0a
0f
18
f7
fa
ec
ed
f7
f8
ec
e9
f5
04
19
09
f8
e7
ed
ff
fd
ed
e2
ea
f5
f6
09
f5
ed
fd
f7
f4
e8
e9
e6
ef
f1
02
fe
f1
ee
fa
f6
f9
f7
f8
f1
00
0b
06
08
f8
fe
00
06
01
fd
ff
fe
0c
11
10
07
0b
0f
02
03
05
06
04
fc
fd
08
0d
0d
0b
0d
05
03
09
05
01
02
05
07
04
00
00
02
09
01
04
02
f9
f4
fa
f7
07
09
0f
17
15
11
fc
f8
f7
f8
f7
01
0f
15
1b
20
14
f9
f9
f2
f1
ff
0d
1b
25
24
1e
16
fb
fc
f1
fd
03
0d
12
1d
1e
23
1f
08
03
07
03
10
0d
17
21
18
0d
08
11
19
18
10
11
0c
0a
02
02
fe
00
07
15
1b
18
14
01
01
f7
f6
00
00
0b
14
1d
14
12
04
ff
fb
f7
00
fd
09
10
11
14
0e
04
f9
f4
fa
fa
fb
02
04
07
08
fd
fb
f9
fa
00
fe
01