01
f8
fc
f3
f7
fe
0c
06
05
03
01
fc
f5
f8
ff
fb
06
08
0c
08
ff
01
00
08
09
0d
14
10
05
f8
00
08
0a
06
08
1a
19
18
10
fe
f7
fa
f9
01
ff
11
1b
15
0d
0e
fc
fd
fe
f7
0c
fe
00
fe
00
00
10
06
fb
00
00
ff
f8
ee
e9
f8
0a
16
07
02
00
03
00
f6
fb
04
09
13
ff
ff
03
ff
fa
ff
fd
17
1d
20
19
ff
fd
fe
ff
00
04
ff
00
15
11
07
07
01
00
fe
01
03
fc
fa
fd
fa
f2
f6
ff
fe
ff
fb
fa
05
fd
fa
04
fc
00
f7
01
ff
04
fb
ff
04
05
0d
06
fe
fa
01
03
06
fd
fb
09
fd
00
0b
09
00
05
01
f9
06
05
fd
f6
f7
ea
f9
02
04
03
03
08
ff
f5
ed
e8
ee
f9
00
10
19
08
06
00
05
f2
ed
f2
f3
06
06
0b
11
04
06
05
0c
fd
f3
08
fa
f7
00
fa
f9
f4
04
10
07
04
f4
f5
fa
f0
f0
02
fa
f4
fd
fa
fb
ff
fd
fc
fe
fb
fe
00
f2
e6
db
e5
f6
02
00
0a
08
fc
08
00
ef
f5
00
ff
fb
03
08
05
01
fc
fa
ff
00
01
05
01
0a
08
00
05
fd
fe
fa
fa
05
03
00
01
09
06
ff
fd
fa
fb
fa
04
03
03
07
0a
0e
08
00
f8
fc
fa
ff
07
07
00
06
fd
00
fa
ff
04
0d
16
0b
0c
06
03
00
fc
ff
07
08
0c
08
07
fe
00
02
02
03
06
01
02
f9
f6
00
02
09
12
04
09
f9
fb
f3
f2
eb
f4
06
0d
06
ff
f9
ef
ef
ed
f3
f5
fe
04
03
00
f9
f5
fa
f4
f1
f3
f6
fc
fe
01
fd
f8
fd
04
02
04
0a
10
0b
01
01
f7
ff
01